/* Copyright 2020 The TensorFlow Authors. All Rights Reserved.

Licensed under the Apache License, Version 2.0 (the "License");
you may not use this file except in compliance with the License.
You may obtain a copy of the License at

    http://www.apache.org/licenses/LICENSE-2.0

Unless required by applicable law or agreed to in writing, software
distributed under the License is distributed on an "AS IS" BASIS,
WITHOUT WARRANTIES OR CONDITIONS OF ANY KIND, either express or implied.
See the License for the specific language governing permissions and
limitations under the License.
==============================================================================*/

// Automatically created from a TensorFlow Lite flatbuffer using the command:
// xxd -i model.tflite > model.cc

// This is a standard TensorFlow Lite model file that has been converted into a
// C data array, so it can be easily compiled into a binary for devices that
// don't have a file system.

// See train/README.md for a full description of the creation process.

#include "model.h"

// Keep model aligned to 8 bytes to guarantee aligned 64-bit accesses.
alignas(8) const unsigned char g_model[] = {
  0x1c, 0x00, 0x00, 0x00, 0x54, 0x46, 0x4c, 0x33, 0x14, 0x00, 0x20, 0x00,
  0x1c, 0x00, 0x18, 0x00, 0x14, 0x00, 0x10, 0x00, 0x0c, 0x00, 0x00, 0x00,
  0x08, 0x00, 0x04, 0x00, 0x14, 0x00, 0x00, 0x00, 0x1c, 0x00, 0x00, 0x00,
  0x80, 0x00, 0x00, 0x00, 0xd8, 0x00, 0x00, 0x00, 0xec, 0x0b, 0x00, 0x00,
  0xfc, 0x0b, 0x00, 0x00, 0xd4, 0x13, 0x00, 0x00, 0x03, 0x00, 0x00, 0x00,
  0x01, 0x00, 0x00, 0x00, 0x04, 0x00, 0x00, 0x00, 0xbe, 0xf3, 0xff, 0xff,
  0x0c, 0x00, 0x00, 0x00, 0x1c, 0x00, 0x00, 0x00, 0x38, 0x00, 0x00, 0x00,
  0x0f, 0x00, 0x00, 0x00, 0x73, 0x65, 0x72, 0x76, 0x69, 0x6e, 0x67, 0x5f,
  0x64, 0x65, 0x66, 0x61, 0x75, 0x6c, 0x74, 0x00, 0x01, 0x00, 0x00, 0x00,
  0x04, 0x00, 0x00, 0x00, 0x9c, 0xff, 0xff, 0xff, 0x0d, 0x00, 0x00, 0x00,
  0x04, 0x00, 0x00, 0x00, 0x07, 0x00, 0x00, 0x00, 0x64, 0x65, 0x6e, 0x73,
  0x65, 0x5f, 0x32, 0x00, 0x01, 0x00, 0x00, 0x00, 0x04, 0x00, 0x00, 0x00,
  0xf2, 0xf4, 0xff, 0xff, 0x04, 0x00, 0x00, 0x00, 0x07, 0x00, 0x00, 0x00,
  0x69, 0x6e, 0x70, 0x75, 0x74, 0x5f, 0x31, 0x00, 0x02, 0x00, 0x00, 0x00,
  0x34, 0x00, 0x00, 0x00, 0x04, 0x00, 0x00, 0x00, 0xdc, 0xff, 0xff, 0xff,
  0x10, 0x00, 0x00, 0x00, 0x04, 0x00, 0x00, 0x00, 0x13, 0x00, 0x00, 0x00,
  0x43, 0x4f, 0x4e, 0x56, 0x45, 0x52, 0x53, 0x49, 0x4f, 0x4e, 0x5f, 0x4d,
  0x45, 0x54, 0x41, 0x44, 0x41, 0x54, 0x41, 0x00, 0x08, 0x00, 0x0c, 0x00,
  0x08, 0x00, 0x04, 0x00, 0x08, 0x00, 0x00, 0x00, 0x0f, 0x00, 0x00, 0x00,
  0x04, 0x00, 0x00, 0x00, 0x13, 0x00, 0x00, 0x00, 0x6d, 0x69, 0x6e, 0x5f,
  0x72, 0x75, 0x6e, 0x74, 0x69, 0x6d, 0x65, 0x5f, 0x76, 0x65, 0x72, 0x73,
  0x69, 0x6f, 0x6e, 0x00, 0x11, 0x00, 0x00, 0x00, 0x10, 0x0b, 0x00, 0x00,
  0x08, 0x0b, 0x00, 0x00, 0x98, 0x0a, 0x00, 0x00, 0x50, 0x0a, 0x00, 0x00,
  0xc0, 0x05, 0x00, 0x00, 0x30, 0x01, 0x00, 0x00, 0x1c, 0x01, 0x00, 0x00,
  0x04, 0x01, 0x00, 0x00, 0xc4, 0x00, 0x00, 0x00, 0xbc, 0x00, 0x00, 0x00,
  0xb4, 0x00, 0x00, 0x00, 0xac, 0x00, 0x00, 0x00, 0xa4, 0x00, 0x00, 0x00,
  0x9c, 0x00, 0x00, 0x00, 0x94, 0x00, 0x00, 0x00, 0x74, 0x00, 0x00, 0x00,
  0x04, 0x00, 0x00, 0x00, 0xaa, 0xf5, 0xff, 0xff, 0x04, 0x00, 0x00, 0x00,
  0x60, 0x00, 0x00, 0x00, 0x0c, 0x00, 0x00, 0x00, 0x08, 0x00, 0x0e, 0x00,
  0x08, 0x00, 0x04, 0x00, 0x08, 0x00, 0x00, 0x00, 0x14, 0x00, 0x00, 0x00,
  0x30, 0x00, 0x00, 0x00, 0x00, 0x00, 0x0a, 0x00, 0x0c, 0x00, 0x08, 0x00,
  0x00, 0x00, 0x07, 0x00, 0x0a, 0x00, 0x00, 0x00, 0x00, 0x00, 0x00, 0x01,
  0x04, 0x00, 0x00, 0x00, 0x01, 0x00, 0x00, 0x00, 0xea, 0x03, 0x00, 0x00,
  0x00, 0x00, 0x0a, 0x00, 0x10, 0x00, 0x0c, 0x00, 0x08, 0x00, 0x04, 0x00,
  0x0a, 0x00, 0x00, 0x00, 0x02, 0x00, 0x00, 0x00, 0x02, 0x00, 0x00, 0x00,
  0x04, 0x00, 0x00, 0x00, 0x06, 0x00, 0x00, 0x00, 0x32, 0x2e, 0x31, 0x30,
  0x2e, 0x30, 0x00, 0x00, 0x16, 0xf6, 0xff, 0xff, 0x04, 0x00, 0x00, 0x00,
  0x10, 0x00, 0x00, 0x00, 0x31, 0x2e, 0x31, 0x34, 0x2e, 0x30, 0x00, 0x00,
  0x00, 0x00, 0x00, 0x00, 0x00, 0x00, 0x00, 0x00, 0xa8, 0xed, 0xff, 0xff,
  0xac, 0xed, 0xff, 0xff, 0xb0, 0xed, 0xff, 0xff, 0xb4, 0xed, 0xff, 0xff,
  0xb8, 0xed, 0xff, 0xff, 0xbc, 0xed, 0xff, 0xff, 0x4a, 0xf6, 0xff, 0xff,
  0x04, 0x00, 0x00, 0x00, 0x30, 0x00, 0x00, 0x00, 0xe3, 0xd1, 0xd8, 0xbe,
  0xb7, 0xe3, 0x74, 0x3e, 0x75, 0x5a, 0x2f, 0x3e, 0x9b, 0x89, 0x36, 0x3f,
  0x1a, 0x04, 0xbd, 0xbe, 0xac, 0x36, 0xe4, 0xbd, 0x99, 0x7d, 0x19, 0xbe,
  0x3f, 0x73, 0x15, 0xbe, 0x86, 0xc4, 0x06, 0xbe, 0x96, 0xb6, 0xd1, 0x3f,
  0x59, 0xa2, 0xea, 0xbd, 0x0c, 0xd1, 0x28, 0x40, 0x86, 0xf6, 0xff, 0xff,
  0x04, 0x00, 0x00, 0x00, 0x08, 0x00, 0x00, 0x00, 0xff, 0xff, 0xff, 0xff,
  0x0c, 0x00, 0x00, 0x00, 0x9a, 0xf6, 0xff, 0xff, 0x04, 0x00, 0x00, 0x00,
  0x04, 0x00, 0x00, 0x00, 0x55, 0xe2, 0x9a, 0xbf, 0xaa, 0xf6, 0xff, 0xff,
  0x04, 0x00, 0x00, 0x00, 0x80, 0x04, 0x00, 0x00, 0xe5, 0x5e, 0xeb, 0x3c,
  0xd8, 0xe4, 0x87, 0xbd, 0x39, 0xba, 0x81, 0xbc, 0x1d, 0xe8, 0x92, 0x3c,
  0xb1, 0x45, 0x83, 0x3d, 0xb8, 0x39, 0x0b, 0xbe, 0x16, 0xee, 0xe8, 0xbc,
  0xdd, 0x1d, 0xee, 0xbd, 0x23, 0x43, 0x46, 0xbe, 0xac, 0x40, 0x40, 0xbd,
  0x74, 0x75, 0x2c, 0xbc, 0x75, 0xf5, 0x69, 0x3d, 0x5e, 0x09, 0x1a, 0xbe,
  0x43, 0x11, 0xc0, 0xbb, 0x6a, 0xb7, 0x77, 0xbe, 0xdf, 0xad, 0x67, 0xbe,
  0x0c, 0xaa, 0xe7, 0xbc, 0x5c, 0x0f, 0x26, 0xbc, 0x8d, 0x6c, 0x3e, 0xbe,
  0x56, 0x3d, 0x2b, 0xbd, 0x2a, 0x13, 0x32, 0xbe, 0xbc, 0x67, 0xff, 0xbd,
  0xf9, 0x60, 0x88, 0xbe, 0xdf, 0x6f, 0xdd, 0xbd, 0x1e, 0xb4, 0xa9, 0x3d,
  0xe1, 0xee, 0xdb, 0xbd, 0x63, 0xeb, 0x9f, 0x3d, 0x3a, 0x02, 0x3e, 0x3e,
  0x19, 0x9f, 0x46, 0x3d, 0x17, 0xe8, 0x93, 0xbb, 0x66, 0xd0, 0xef, 0xbc,
  0x4c, 0x5c, 0xf9, 0x3d, 0x1b, 0xe4, 0x39, 0xbe, 0xfc, 0x12, 0x14, 0x3d,
  0x38, 0xca, 0x9d, 0x3d, 0xa4, 0x38, 0x9a, 0x3d, 0x62, 0x84, 0xff, 0xbd,
  0x31, 0xe3, 0xb3, 0xbc, 0x5b, 0xb9, 0x48, 0xbd, 0xe8, 0x65, 0xbe, 0xbd,
  0x78, 0x59, 0x24, 0xbd, 0xde, 0xc2, 0xb6, 0xbb, 0x33, 0x19, 0x1a, 0x3e,
  0x2b, 0xe7, 0xbb, 0x3c, 0x6c, 0x77, 0xb7, 0x3b, 0x8c, 0x1a, 0x8b, 0xbd,
  0x1a, 0x20, 0xf4, 0xbd, 0xa8, 0x1f, 0x59, 0xbd, 0x9a, 0x5b, 0xdf, 0x3d,
  0xa0, 0x50, 0x0e, 0xbe, 0x6f, 0xaa, 0x37, 0xbe, 0x15, 0x28, 0x06, 0xbf,
  0x8d, 0xc4, 0xee, 0x3e, 0xa2, 0x8b, 0x3c, 0xbf, 0x12, 0x6f, 0xf8, 0xbd,
  0x6d, 0x3e, 0x1c, 0xbe, 0xe5, 0xcc, 0x1c, 0x3e, 0x6a, 0x65, 0xfd, 0x3e,
  0xdb, 0xd5, 0x24, 0x3f, 0x50, 0x9b, 0x4b, 0xbf, 0x65, 0x2b, 0x26, 0x3e,
  0x32, 0xcf, 0x41, 0x3f, 0xee, 0x6f, 0x80, 0xbe, 0x80, 0xaa, 0xbd, 0x3b,
  0x68, 0x6b, 0x77, 0xbe, 0xee, 0x27, 0x37, 0xbe, 0x61, 0x29, 0xb8, 0xbf,
  0x76, 0x18, 0x15, 0xbd, 0x25, 0x79, 0x9a, 0xbe, 0x38, 0x3d, 0x71, 0x3f,
  0x3f, 0x2c, 0x06, 0x3f, 0x7b, 0xb6, 0x57, 0x3f, 0x3a, 0x4b, 0x8f, 0xba,
  0x4e, 0x3f, 0x1a, 0xbe, 0x2f, 0x98, 0xfd, 0x3c, 0xf8, 0x22, 0x2c, 0x3d,
  0xe7, 0x0b, 0x40, 0x3c, 0x2d, 0xac, 0x56, 0x3d, 0xad, 0x7c, 0x4e, 0xbd,
  0x69, 0x6e, 0x00, 0xbd, 0x6f, 0x92, 0x89, 0xbd, 0x35, 0xe0, 0x63, 0x3c,
  0x21, 0x6b, 0x06, 0xbe, 0xe2, 0x07, 0x2d, 0xbd, 0xcd, 0x39, 0xf4, 0xbd,
  0xe6, 0x9a, 0x71, 0xbd, 0xd7, 0x17, 0x88, 0xbd, 0x3f, 0x9f, 0xc4, 0xbd,
  0xc6, 0xf6, 0x1e, 0x3d, 0xe7, 0x4a, 0x65, 0x3c, 0x38, 0x82, 0xd3, 0xbd,
  0xaf, 0xa2, 0x2d, 0xbd, 0xa2, 0x94, 0xd8, 0xbd, 0x41, 0x58, 0xd0, 0xbd,
  0x1a, 0xda, 0xff, 0xbd, 0x8e, 0xe1, 0xc9, 0x3c, 0xcd, 0x70, 0xf9, 0xbf,
  0xcb, 0xa5, 0xa4, 0xbe, 0x6d, 0x51, 0x7c, 0xbf, 0x5d, 0x31, 0x45, 0x3f,
  0xcf, 0xb6, 0xc3, 0xbe, 0xad, 0x34, 0x1d, 0x40, 0xdd, 0x60, 0xae, 0x3f,
  0xcc, 0xd6, 0x09, 0x40, 0x5a, 0x46, 0xfa, 0x3d, 0xa4, 0xdd, 0xe9, 0x3d,
  0xe2, 0xd4, 0x0b, 0x40, 0x74, 0x69, 0x04, 0x40, 0x18, 0x03, 0x41, 0x3f,
  0x9f, 0x38, 0x22, 0x3e, 0xc2, 0xf6, 0x10, 0x3f, 0x87, 0x1c, 0xb1, 0xbe,
  0x26, 0xf9, 0x78, 0x40, 0xd9, 0x1f, 0xe6, 0x3e, 0xaf, 0x0f, 0xf2, 0x40,
  0x43, 0x73, 0x93, 0xbf, 0xce, 0xe1, 0x26, 0x40, 0xa7, 0x35, 0x56, 0x3f,
  0x4f, 0xe1, 0xb3, 0x3e, 0xe8, 0x29, 0x34, 0x3e, 0x6e, 0xff, 0x76, 0xbf,
  0x83, 0x96, 0x52, 0x3f, 0xcc, 0x44, 0xd7, 0x3e, 0x38, 0x07, 0x85, 0xbe,
  0x0a, 0xe0, 0x1a, 0xbd, 0x9a, 0xe4, 0x07, 0x3f, 0x33, 0x87, 0x8a, 0x3f,
  0xe9, 0x14, 0xc4, 0x3f, 0x52, 0x0f, 0x0a, 0xbe, 0x2e, 0xec, 0x0f, 0xbf,
  0xdc, 0x19, 0x1e, 0x40, 0x6e, 0xb8, 0x8d, 0x3f, 0x2b, 0xb2, 0x33, 0xbf,
  0x96, 0x4e, 0xbc, 0x3f, 0xb4, 0x29, 0x63, 0x3f, 0x18, 0xc6, 0x71, 0x3f,
  0xeb, 0x9c, 0x03, 0x40, 0x61, 0x63, 0xc2, 0xbd, 0x58, 0x04, 0x15, 0x40,
  0xbf, 0x65, 0x87, 0xbf, 0x7c, 0x4e, 0xd1, 0x3e, 0x8b, 0xf6, 0x52, 0x3f,
  0x7b, 0x1b, 0x09, 0xc0, 0xeb, 0x8a, 0x3f, 0x3e, 0x75, 0x75, 0xa7, 0xbe,
  0xa8, 0x77, 0xbc, 0xbe, 0x53, 0xa6, 0xeb, 0xbe, 0xe1, 0xa2, 0x22, 0x3e,
  0x22, 0x3d, 0xc6, 0xbe, 0x01, 0xc4, 0x8f, 0x3f, 0xff, 0x54, 0x43, 0x3f,
  0x62, 0x2b, 0xad, 0xbd, 0xb4, 0xc5, 0x44, 0xbf, 0x70, 0x2b, 0x8c, 0xbe,
  0x3d, 0xf8, 0xd6, 0xbd, 0x5f, 0xd3, 0x46, 0x3f, 0x1d, 0xfe, 0xc0, 0xbe,
  0x21, 0x0a, 0xca, 0xbe, 0xda, 0xfb, 0xa4, 0x3e, 0xf2, 0xcb, 0x12, 0xbe,
  0x93, 0xa2, 0xda, 0x3f, 0x0c, 0x4d, 0x4c, 0xbf, 0x30, 0xe6, 0x4f, 0xbe,
  0x7f, 0xf1, 0x18, 0xbf, 0xa0, 0xc7, 0xea, 0xbe, 0xd2, 0xd3, 0x94, 0xbe,
  0xbf, 0x50, 0xce, 0xbe, 0x57, 0x83, 0xc2, 0x3f, 0xa8, 0xbf, 0x41, 0xbf,
  0xdd, 0xf8, 0x7d, 0x3e, 0x29, 0xcf, 0x2c, 0xbf, 0x51, 0x64, 0x10, 0xbe,
  0xe0, 0xfa, 0x18, 0xbf, 0x7e, 0x86, 0x21, 0x3e, 0x64, 0xd2, 0x08, 0x3f,
  0xe3, 0x65, 0xf0, 0x3e, 0xae, 0xe2, 0x0e, 0x3f, 0xc4, 0x88, 0x01, 0x3f,
  0x1c, 0xe6, 0xe6, 0x3e, 0x8c, 0x3a, 0x92, 0x3e, 0x80, 0x47, 0x9b, 0x3d,
  0xc3, 0x32, 0xc7, 0x3d, 0xba, 0xc6, 0x89, 0xbd, 0x7e, 0x13, 0xcb, 0x3e,
  0xe2, 0x9b, 0x23, 0x3f, 0xbb, 0xec, 0x12, 0x3f, 0x07, 0xf7, 0xbc, 0x3f,
  0xdd, 0xb1, 0xe1, 0x3e, 0xce, 0xc2, 0x13, 0xbe, 0x17, 0xd7, 0x28, 0x3f,
  0x1c, 0x7b, 0xe5, 0xbe, 0x3b, 0x84, 0x9d, 0xbe, 0xd9, 0x70, 0xda, 0x3c,
  0x5b, 0x0e, 0xff, 0xbd, 0x1f, 0xdd, 0x65, 0x3e, 0x38, 0x92, 0x62, 0x3e,
  0x7d, 0x97, 0x52, 0xbf, 0x3d, 0xc1, 0x4e, 0x3e, 0xaa, 0x56, 0xe6, 0x3d,
  0x33, 0xa0, 0x87, 0x3d, 0xd0, 0x08, 0x61, 0xbe, 0x7a, 0x25, 0x44, 0xbf,
  0x0c, 0x49, 0x53, 0x3d, 0x6e, 0xb3, 0x56, 0x3e, 0xbf, 0x06, 0x00, 0xbe,
  0xaa, 0xf2, 0x09, 0xbf, 0x94, 0x40, 0x1e, 0xbe, 0x7b, 0xa1, 0x41, 0xbe,
  0x0d, 0xb6, 0xc1, 0x3e, 0xd9, 0x2f, 0x1d, 0x3e, 0x29, 0xae, 0x32, 0x3f,
  0x09, 0xfe, 0x12, 0x3c, 0x22, 0x37, 0xa5, 0x3c, 0x62, 0xf7, 0xa2, 0xbd,
  0x21, 0x77, 0x08, 0xbe, 0xf6, 0x41, 0x12, 0xbe, 0x43, 0x59, 0xb2, 0xbc,
  0x3d, 0x44, 0x32, 0xbc, 0xa2, 0x82, 0x7f, 0xbb, 0x8b, 0xc8, 0x8b, 0xbb,
  0x80, 0xc7, 0x03, 0x3c, 0xa4, 0x15, 0x8e, 0xbd, 0xf9, 0xcc, 0x0b, 0x3c,
  0x6b, 0x77, 0x07, 0x3c, 0x28, 0x9d, 0x70, 0xbc, 0xcf, 0x99, 0xc2, 0xba,
  0x89, 0xe3, 0xfc, 0xbb, 0xce, 0x8c, 0x59, 0xbe, 0x8b, 0x33, 0x30, 0x3d,
  0x9a, 0xe7, 0xed, 0xbe, 0xbe, 0x10, 0x19, 0xbd, 0x0d, 0x25, 0x9d, 0x3c,
  0x46, 0xde, 0x3c, 0xbd, 0x58, 0xf5, 0xa2, 0xbc, 0x47, 0xd1, 0x84, 0x3d,
  0x0f, 0xe9, 0x0c, 0xbc, 0xf0, 0x5c, 0x43, 0x3d, 0x45, 0x4a, 0x11, 0xbc,
  0x3d, 0xc8, 0x20, 0x3d, 0x1f, 0x06, 0xb1, 0xbd, 0x83, 0xee, 0x53, 0x3c,
  0x9f, 0xeb, 0x9b, 0xbd, 0xa5, 0x3d, 0xd2, 0x3b, 0x39, 0x89, 0x60, 0xbb,
  0x79, 0x87, 0x06, 0x3b, 0x61, 0x80, 0x4c, 0xbd, 0xec, 0x06, 0x4c, 0xbd,
  0x5e, 0xff, 0x61, 0xbd, 0x2d, 0xa0, 0xed, 0xbd, 0xd9, 0xb7, 0xf9, 0x3a,
  0xb3, 0x65, 0xc8, 0xbb, 0x36, 0x77, 0x87, 0x3b, 0x56, 0x31, 0xde, 0xbd,
  0x65, 0x00, 0xb6, 0x3c, 0x56, 0xa0, 0xcd, 0xbd, 0xac, 0x5f, 0x08, 0xbe,
  0xb8, 0xe3, 0x32, 0xbd, 0x35, 0x0c, 0x08, 0xbd, 0x3f, 0xa7, 0xe1, 0xbd,
  0xe0, 0x72, 0x87, 0xbc, 0x64, 0x4b, 0xd2, 0xbd, 0x65, 0x66, 0xda, 0xbd,
  0x9e, 0x2e, 0x13, 0xbe, 0xe7, 0x4c, 0x5d, 0xbd, 0xf5, 0x5e, 0x38, 0x3d,
  0xcb, 0xf1, 0xfe, 0x3d, 0x3b, 0xd4, 0x7c, 0xbe, 0x46, 0xeb, 0x08, 0xbf,
  0xb8, 0x0f, 0x05, 0x3e, 0x8d, 0xce, 0xea, 0xbe, 0x2f, 0x21, 0x9c, 0x3d,
  0x42, 0x02, 0x24, 0xbe, 0xf7, 0xd6, 0x25, 0x3e, 0x89, 0xc5, 0xe1, 0xbd,
  0x15, 0xe4, 0x8d, 0x3e, 0xb6, 0x5a, 0xb6, 0x3e, 0xe4, 0x33, 0x84, 0x3e,
  0x15, 0x3a, 0xc8, 0x3e, 0x13, 0xea, 0x17, 0xbd, 0x71, 0x11, 0x31, 0x3e,
  0xea, 0xc3, 0x37, 0xbe, 0x11, 0xb8, 0x44, 0xbe, 0x8d, 0x40, 0x52, 0xbf,
  0x05, 0x1c, 0x82, 0x3d, 0x59, 0xed, 0x62, 0x3e, 0x8f, 0x37, 0x92, 0x3e,
  0xc2, 0x3d, 0xa0, 0xbb, 0x05, 0x80, 0x57, 0xbe, 0x36, 0xfb, 0xff, 0xff,
  0x04, 0x00, 0x00, 0x00, 0x80, 0x04, 0x00, 0x00, 0x0c, 0x2d, 0x64, 0x40,
  0xec, 0xc9, 0x57, 0xc0, 0xe0, 0x32, 0xe8, 0x3f, 0xaf, 0xc8, 0xa9, 0xc0,
  0xef, 0xf0, 0x6d, 0x3d, 0x9d, 0x56, 0x96, 0xbe, 0x19, 0xe3, 0xfd, 0x3f,
  0xe9, 0x9d, 0x57, 0x40, 0x45, 0xd5, 0x79, 0x3f, 0x11, 0x2e, 0xa5, 0xbf,
  0x3d, 0x84, 0x2b, 0x40, 0x7b, 0x51, 0xbe, 0x3f, 0x22, 0x83, 0x7c, 0x3e,
  0x9b, 0x2a, 0xa6, 0x3f, 0xe6, 0xbc, 0xf0, 0x3f, 0xa8, 0xc5, 0x73, 0xbf,
  0xbf, 0xf2, 0x6a, 0xbf, 0x5b, 0x98, 0x96, 0xbf, 0x19, 0x56, 0xe6, 0xbf,
  0x1e, 0xf4, 0xfb, 0x3e, 0x4f, 0x6a, 0xa7, 0xbd, 0xff, 0xa6, 0x5d, 0xbf,
  0x93, 0x2b, 0x00, 0xc0, 0x1c, 0x35, 0xca, 0xc0, 0x2f, 0xcc, 0x15, 0x40,
  0x86, 0xca, 0xf1, 0x3d, 0x02, 0xbf, 0x5f, 0xbf, 0x13, 0xdf, 0xfb, 0xbe,
  0xeb, 0xf2, 0xfe, 0xbd, 0x3c, 0x32, 0xa8, 0x3f, 0xb8, 0x3b, 0x45, 0x40,
  0xee, 0xfc, 0x39, 0x40, 0x6b, 0xee, 0x25, 0x40, 0xb5, 0xdc, 0x35, 0x3f,
  0xee, 0x34, 0xc1, 0x3f, 0xcf, 0x0a, 0x95, 0xc0, 0x16, 0x0b, 0x2a, 0x3f,
  0x68, 0x05, 0xd6, 0xbf, 0x6d, 0x73, 0x7f, 0xbf, 0x12, 0xa8, 0xd6, 0xbd,
  0x31, 0xbe, 0xae, 0x3f, 0x12, 0x21, 0xc8, 0x3f, 0xfb, 0x93, 0x2a, 0x40,
  0x0d, 0x78, 0xb9, 0x3f, 0x9b, 0x87, 0x22, 0x3f, 0x28, 0x46, 0xac, 0xbf,
  0xe5, 0xe9, 0x0f, 0x3f, 0xdd, 0xcf, 0xd0, 0x3f, 0xe1, 0x6b, 0x37, 0x3f,
  0xe9, 0x7f, 0x39, 0xc0, 0x5f, 0x69, 0xf5, 0x40, 0x90, 0xbe, 0x30, 0xc1,
  0xa4, 0xa0, 0x86, 0x40, 0xa0, 0x34, 0x90, 0xc0, 0x43, 0xb6, 0x1b, 0x40,
  0x33, 0xab, 0x2f, 0x40, 0x80, 0x3e, 0x68, 0x40, 0x01, 0xf4, 0x04, 0xc1,
  0xa0, 0x13, 0x27, 0xc1, 0xc3, 0x58, 0x94, 0x41, 0x81, 0xe9, 0x8a, 0x3f,
  0xa8, 0xe2, 0x1c, 0x3f, 0x46, 0x0b, 0xae, 0x3e, 0xf3, 0x29, 0x27, 0xbf,
  0xeb, 0x38, 0xc3, 0x3f, 0x2e, 0xe1, 0x89, 0xbf, 0xdb, 0xbe, 0xad, 0x3d,
  0xc2, 0x97, 0x9b, 0x3e, 0x12, 0x8e, 0x2f, 0x3d, 0xb5, 0xb7, 0xdb, 0xbf,
  0x4b, 0x90, 0xa8, 0xc0, 0x00, 0xe2, 0x68, 0xc0, 0xfa, 0x76, 0x2e, 0xc0,
  0xc4, 0x45, 0xfe, 0xc0, 0x27, 0xbe, 0x60, 0x3e, 0xca, 0xc7, 0x29, 0x3d,
  0x8e, 0x59, 0x0c, 0xc0, 0x57, 0xa8, 0x0f, 0xbe, 0x9e, 0xc4, 0xc6, 0xbf,
  0xe1, 0x8e, 0x73, 0x40, 0xc2, 0x25, 0xc5, 0x3f, 0x0f, 0x0a, 0x40, 0x3f,
  0xea, 0xda, 0x76, 0x40, 0x27, 0xad, 0xd1, 0xc0, 0x59, 0x88, 0x6c, 0x3f,
  0x5f, 0x60, 0x7b, 0x3e, 0x37, 0x71, 0xbc, 0x3e, 0x9e, 0x5c, 0xc1, 0xbe,
  0xba, 0xc3, 0x20, 0x3f, 0x71, 0xfb, 0x8b, 0xbd, 0xc9, 0xff, 0xc7, 0x3e,
  0xae, 0xb1, 0x3a, 0xbf, 0xab, 0xa3, 0xd6, 0xbf, 0xc6, 0xd2, 0xd6, 0xbf,
  0x91, 0xf3, 0xca, 0xbf, 0x61, 0x8d, 0xf3, 0xbf, 0x05, 0xd3, 0xa1, 0x3f,
  0xb7, 0xb6, 0x30, 0xc0, 0xb9, 0xf1, 0xd6, 0x3f, 0xc4, 0x1f, 0xd1, 0x3f,
  0xae, 0x47, 0x0f, 0xbf, 0x1e, 0x35, 0x42, 0xc0, 0xa3, 0x88, 0x5f, 0x40,
  0xcd, 0xd0, 0x6f, 0xbf, 0x94, 0x99, 0x9c, 0x3f, 0x22, 0xe0, 0xb1, 0xbf,
  0x98, 0xb6, 0xd1, 0x3f, 0xce, 0x43, 0xae, 0xc1, 0x0e, 0x64, 0xc7, 0xbe,
  0xca, 0x47, 0x53, 0x40, 0x74, 0xae, 0xfd, 0xc0, 0x2b, 0xb7, 0x94, 0x40,
  0x22, 0x8a, 0xf0, 0xbf, 0x2c, 0x07, 0x7f, 0x40, 0x97, 0x11, 0xaf, 0x3e,
  0x4f, 0x5d, 0xb9, 0xbf, 0x92, 0xd8, 0x76, 0xc0, 0xb1, 0x40, 0xe5, 0xc0,
  0x59, 0xf9, 0xfe, 0xbe, 0x0c, 0x11, 0x3c, 0x41, 0x03, 0x9a, 0xa1, 0x3d,
  0xee, 0x46, 0xea, 0x3e, 0xb7, 0x49, 0x40, 0xbe, 0xd7, 0x50, 0x10, 0xbf,
  0xe6, 0xa7, 0x93, 0xbe, 0xeb, 0xca, 0x8f, 0xbf, 0xac, 0x78, 0x00, 0x3f,
  0x16, 0x39, 0x00, 0x3f, 0x4e, 0x9f, 0xcf, 0xbf, 0x7f, 0xf7, 0xa7, 0xbf,
  0x91, 0x08, 0x95, 0xc0, 0xa9, 0x89, 0xc6, 0xc0, 0xc3, 0x19, 0x88, 0x3e,
  0x3d, 0x2b, 0x84, 0x3e, 0x14, 0xc5, 0xbd, 0x3e, 0x7f, 0x00, 0x7d, 0x3f,
  0x1b, 0xe8, 0xb0, 0xbe, 0x98, 0x2e, 0x68, 0xbe, 0x48, 0x0c, 0x53, 0x3f,
  0x69, 0xb5, 0xbb, 0x3e, 0x30, 0xb8, 0x8b, 0x3e, 0x5b, 0xac, 0x5f, 0x40,
  0x99, 0x24, 0x6b, 0x3f, 0x6b, 0x19, 0x17, 0x40, 0x77, 0xbe, 0x45, 0xbe,
  0x87, 0xa4, 0xbf, 0xbf, 0xf8, 0x5e, 0xd2, 0x3d, 0x07, 0xa2, 0xbc, 0x3e,
  0xe1, 0xd9, 0x98, 0x3e, 0x55, 0x49, 0xd1, 0xbf, 0x6f, 0xc2, 0x3a, 0x3e,
  0x23, 0xe8, 0x9d, 0xbf, 0xd8, 0x14, 0xa9, 0x3f, 0x95, 0x9e, 0x1c, 0xc0,
  0x20, 0x93, 0x52, 0xc0, 0xfb, 0x5e, 0x11, 0xc1, 0x6a, 0xc6, 0x51, 0xc0,
  0xba, 0xd2, 0x2c, 0x40, 0x48, 0x12, 0x16, 0x40, 0x00, 0x66, 0xe2, 0xbf,
  0x62, 0x98, 0xf5, 0x3d, 0xd6, 0xc1, 0x82, 0x40, 0xab, 0x83, 0x8f, 0xc0,
  0x22, 0x45, 0x9c, 0x40, 0x82, 0x18, 0xa7, 0xbf, 0x5a, 0x5c, 0x6e, 0xc0,
  0x46, 0x1b, 0xc1, 0xc0, 0xa0, 0x28, 0x39, 0x41, 0x84, 0xb7, 0x1d, 0x3f,
  0x67, 0x01, 0xba, 0xbf, 0xe1, 0x55, 0x52, 0x3f, 0xc7, 0x9c, 0x22, 0xc0,
  0x7b, 0x84, 0x0d, 0x3f, 0x2b, 0x07, 0xb0, 0xbe, 0x47, 0x1c, 0xcc, 0x3f,
  0xdd, 0x8c, 0x90, 0xbf, 0xed, 0x7c, 0xf3, 0x3f, 0x5e, 0xc1, 0xd7, 0xc0,
  0x48, 0x02, 0x16, 0x3e, 0x86, 0x4a, 0x23, 0xc0, 0xb5, 0xe7, 0x33, 0x3f,
  0x22, 0x5c, 0x17, 0xbf, 0x79, 0x37, 0x98, 0xbf, 0x74, 0xb2, 0x14, 0x3f,
  0x79, 0xb8, 0x0c, 0xbf, 0x53, 0x6a, 0xfe, 0x3e, 0xee, 0x9f, 0xda, 0xbe,
  0x45, 0x24, 0x92, 0xbf, 0x7b, 0xad, 0x1f, 0xc0, 0x20, 0xd0, 0x37, 0xbf,
  0x86, 0x5e, 0xdc, 0xbf, 0xdb, 0x8e, 0xff, 0xc0, 0x05, 0x7b, 0xb9, 0xbf,
  0x57, 0xb6, 0xc2, 0x3f, 0x38, 0xb7, 0x90, 0x40, 0xea, 0xb2, 0x5c, 0xc0,
  0x29, 0x8c, 0xec, 0xbf, 0xe4, 0x9e, 0xbd, 0x3e, 0x83, 0x5d, 0xa4, 0xbf,
  0x2a, 0x01, 0x02, 0xc0, 0xde, 0x86, 0x60, 0xc0, 0x0f, 0x5a, 0x0e, 0xc0,
  0x3c, 0x52, 0x23, 0x40, 0xe4, 0x58, 0x93, 0xc0, 0xc4, 0x78, 0x9f, 0x3f,
  0x3e, 0x7d, 0x1a, 0xc0, 0x86, 0x27, 0x34, 0x3f, 0xd4, 0x80, 0x21, 0x3f,
  0xbd, 0x45, 0x2e, 0x40, 0xad, 0xa2, 0xc6, 0xbe, 0x43, 0xb1, 0x9f, 0xc0,
  0xa1, 0xa1, 0xad, 0xc0, 0x91, 0x2c, 0x9e, 0x3f, 0x12, 0x37, 0x8f, 0x40,
  0xba, 0x51, 0x6a, 0x40, 0xe9, 0x90, 0x1e, 0x40, 0xac, 0x05, 0x27, 0xbf,
  0x8a, 0xb1, 0xff, 0xbc, 0x76, 0x1a, 0xca, 0xbf, 0xdf, 0x2f, 0xf2, 0xbe,
  0xaf, 0x0a, 0xf6, 0xbe, 0x86, 0x6c, 0x84, 0xbf, 0x27, 0xb8, 0xae, 0xbe,
  0x2b, 0xba, 0x1f, 0xbf, 0xb2, 0xcc, 0xdd, 0x3e, 0x30, 0x69, 0xea, 0x3d,
  0x35, 0x8b, 0x40, 0xbf, 0xa0, 0xef, 0xfb, 0xc0, 0x1c, 0xc3, 0x08, 0xc0,
  0x95, 0xc2, 0x30, 0x3f, 0x8d, 0x2f, 0x10, 0x40, 0x7c, 0xb9, 0xc2, 0x3f,
  0x66, 0xdc, 0x45, 0xbf, 0x43, 0xaf, 0xbc, 0x3f, 0xb3, 0x08, 0x61, 0x3f,
  0x03, 0x62, 0xad, 0xbe, 0x24, 0x0a, 0x9f, 0x3f, 0x17, 0x44, 0xb2, 0x3f,
  0xbd, 0x78, 0x5f, 0x40, 0x39, 0x5d, 0xca, 0xbf, 0x9f, 0x05, 0xb2, 0x3e,
  0x40, 0x39, 0x56, 0x3f, 0x02, 0x83, 0x10, 0x3f, 0x73, 0x4c, 0x18, 0x3f,
  0x67, 0xde, 0x99, 0xbf, 0x8a, 0xeb, 0x81, 0xbf, 0xf3, 0x76, 0x22, 0xc0,
  0x6c, 0xdf, 0x65, 0xc0, 0xa0, 0xfa, 0xb1, 0xbf, 0xdf, 0x07, 0xbf, 0xbe,
  0x90, 0x88, 0x04, 0xc0, 0xda, 0x8e, 0x95, 0xc0, 0x08, 0x0e, 0x07, 0xc1,
  0xb4, 0x33, 0xda, 0xbe, 0x8d, 0x83, 0xfc, 0xbf, 0x05, 0x0a, 0xd3, 0xbf,
  0x25, 0x76, 0x37, 0xbf, 0xeb, 0x5a, 0x77, 0x3f, 0x44, 0xad, 0xe4, 0x3f,
  0x90, 0x87, 0xd2, 0x3e, 0x5d, 0x26, 0xbf, 0xbf, 0x3c, 0xd4, 0x9a, 0x3f,
  0x11, 0xf6, 0xa6, 0xc0, 0xb6, 0xbc, 0xa6, 0xc0, 0xfd, 0x50, 0xf8, 0xbd,
  0x39, 0x4b, 0x15, 0x40, 0x96, 0x44, 0x98, 0xbf, 0x9c, 0x22, 0x7e, 0x3e,
  0xe8, 0x60, 0xaf, 0xbf, 0x75, 0x64, 0x91, 0xbe, 0x84, 0x15, 0x32, 0x3e,
  0x43, 0x2f, 0xd5, 0xbe, 0x8a, 0xca, 0xdf, 0xbf, 0xb9, 0x99, 0x0a, 0xc0,
  0xac, 0xc6, 0x8f, 0x3f, 0xe7, 0x58, 0x66, 0xc1, 0x7d, 0x91, 0x36, 0xc0,
  0x74, 0xad, 0xbc, 0x3f, 0xa1, 0xa7, 0xae, 0xbe, 0x11, 0x02, 0x8a, 0x40,
  0x14, 0x79, 0xb4, 0xc0, 0x08, 0x1e, 0x1e, 0xc0, 0x7b, 0x6f, 0x12, 0x40,
  0xa9, 0x98, 0xbe, 0x3f, 0x2d, 0x8b, 0x5e, 0xc0, 0xcb, 0xad, 0x03, 0x41,
  0x15, 0xc1, 0x68, 0xc1, 0xf7, 0x54, 0xd9, 0x3f, 0xc2, 0xff, 0xff, 0xff,
  0x04, 0x00, 0x00, 0x00, 0x30, 0x00, 0x00, 0x00, 0xf5, 0x05, 0xfb, 0x3f,
  0x9b, 0xdb, 0x5e, 0xbe, 0xe2, 0x1d, 0x57, 0xc0, 0x85, 0x95, 0x4e, 0x3e,
  0x35, 0x8c, 0x86, 0xc0, 0x1a, 0x2e, 0x13, 0xc0, 0x6f, 0x78, 0x38, 0x40,
  0xc8, 0x6e, 0xd1, 0xbe, 0xc0, 0xc8, 0xdf, 0x3f, 0x59, 0xed, 0xeb, 0x3c,
  0x7b, 0x13, 0xa0, 0x3f, 0x40, 0xb3, 0xd0, 0xbf, 0x00, 0x00, 0x06, 0x00,
  0x08, 0x00, 0x04, 0x00, 0x06, 0x00, 0x00, 0x00, 0x04, 0x00, 0x00, 0x00,
  0x60, 0x00, 0x00, 0x00, 0x4b, 0xce, 0x24, 0xbf, 0x84, 0x54, 0x8d, 0x3f,
  0x35, 0x3a, 0x29, 0xbf, 0x06, 0x49, 0x21, 0xbe, 0xe6, 0x67, 0x59, 0x3e,
  0x5c, 0xcb, 0x87, 0x3e, 0x69, 0xbe, 0xa4, 0x3e, 0xf8, 0x94, 0xda, 0x3c,
  0xba, 0xfd, 0xef, 0x3f, 0x59, 0xf4, 0x6f, 0x3f, 0xc8, 0x2d, 0x1a, 0x40,
  0x96, 0xb7, 0xff, 0xbf, 0x9d, 0x33, 0x98, 0x3f, 0x41, 0x0b, 0x96, 0xbf,
  0x0a, 0x5a, 0xb6, 0x3f, 0xd7, 0xaf, 0xc8, 0x3f, 0xff, 0x9e, 0xcb, 0x3e,
  0x5c, 0x0a, 0xfb, 0xbe, 0xdc, 0x6a, 0x9d, 0x3e, 0xf0, 0xe5, 0x4d, 0xbf,
  0x46, 0xf7, 0x34, 0x3f, 0xd3, 0xc4, 0x19, 0x40, 0xc2, 0x0c, 0x9a, 0x3f,
  0xb2, 0x41, 0xbf, 0x3e, 0xe8, 0xf7, 0xff, 0xff, 0xec, 0xf7, 0xff, 0xff,
  0x0f, 0x00, 0x00, 0x00, 0x4d, 0x4c, 0x49, 0x52, 0x20, 0x43, 0x6f, 0x6e,
  0x76, 0x65, 0x72, 0x74, 0x65, 0x64, 0x2e, 0x00, 0x01, 0x00, 0x00, 0x00,
  0x14, 0x00, 0x00, 0x00, 0x00, 0x00, 0x0e, 0x00, 0x18, 0x00, 0x14, 0x00,
  0x10, 0x00, 0x0c, 0x00, 0x08, 0x00, 0x04, 0x00, 0x0e, 0x00, 0x00, 0x00,
  0x14, 0x00, 0x00, 0x00, 0x1c, 0x00, 0x00, 0x00, 0x78, 0x01, 0x00, 0x00,
  0x7c, 0x01, 0x00, 0x00, 0x80, 0x01, 0x00, 0x00, 0x04, 0x00, 0x00, 0x00,
  0x6d, 0x61, 0x69, 0x6e, 0x00, 0x00, 0x00, 0x00, 0x06, 0x00, 0x00, 0x00,
  0x3c, 0x01, 0x00, 0x00, 0xec, 0x00, 0x00, 0x00, 0xa0, 0x00, 0x00, 0x00,
  0x6c, 0x00, 0x00, 0x00, 0x34, 0x00, 0x00, 0x00, 0x10, 0x00, 0x00, 0x00,
  0x00, 0x00, 0x0a, 0x00, 0x10, 0x00, 0x0c, 0x00, 0x08, 0x00, 0x04, 0x00,
  0x0a, 0x00, 0x00, 0x00, 0x0c, 0x00, 0x00, 0x00, 0x10, 0x00, 0x00, 0x00,
  0x03, 0x00, 0x00, 0x00, 0x01, 0x00, 0x00, 0x00, 0x0d, 0x00, 0x00, 0x00,
  0x01, 0x00, 0x00, 0x00, 0x0c, 0x00, 0x00, 0x00, 0x62, 0xff, 0xff, 0xff,
  0x14, 0x00, 0x00, 0x00, 0x00, 0x00, 0x00, 0x08, 0x10, 0x00, 0x00, 0x00,
  0x14, 0x00, 0x00, 0x00, 0x01, 0x00, 0x00, 0x00, 0xa0, 0xf8, 0xff, 0xff,
  0x01, 0x00, 0x00, 0x00, 0x0c, 0x00, 0x00, 0x00, 0x03, 0x00, 0x00, 0x00,
  0x0b, 0x00, 0x00, 0x00, 0x07, 0x00, 0x00, 0x00, 0x05, 0x00, 0x00, 0x00,
  0x96, 0xff, 0xff, 0xff, 0x14, 0x00, 0x00, 0x00, 0x00, 0x00, 0x00, 0x0b,
  0x10, 0x00, 0x00, 0x00, 0x14, 0x00, 0x00, 0x00, 0x02, 0x00, 0x00, 0x00,
  0xd4, 0xf8, 0xff, 0xff, 0x01, 0x00, 0x00, 0x00, 0x0b, 0x00, 0x00, 0x00,
  0x02, 0x00, 0x00, 0x00, 0x0a, 0x00, 0x00, 0x00, 0x08, 0x00, 0x00, 0x00,
  0xc6, 0xff, 0xff, 0xff, 0x14, 0x00, 0x00, 0x00, 0x00, 0x00, 0x00, 0x08,
  0x14, 0x00, 0x00, 0x00, 0x18, 0x00, 0x00, 0x00, 0x01, 0x00, 0x00, 0x00,
  0xb6, 0xff, 0xff, 0xff, 0x00, 0x00, 0x00, 0x01, 0x01, 0x00, 0x00, 0x00,
  0x0a, 0x00, 0x00, 0x00, 0x03, 0x00, 0x00, 0x00, 0x09, 0x00, 0x00, 0x00,
  0x04, 0x00, 0x00, 0x00, 0x02, 0x00, 0x00, 0x00, 0x00, 0x00, 0x0e, 0x00,
  0x1a, 0x00, 0x14, 0x00, 0x10, 0x00, 0x0c, 0x00, 0x0b, 0x00, 0x04, 0x00,
  0x0e, 0x00, 0x00, 0x00, 0x1c, 0x00, 0x00, 0x00, 0x00, 0x00, 0x00, 0x08,
  0x1c, 0x00, 0x00, 0x00, 0x20, 0x00, 0x00, 0x00, 0x01, 0x00, 0x00, 0x00,
  0x00, 0x00, 0x06, 0x00, 0x08, 0x00, 0x07, 0x00, 0x06, 0x00, 0x00, 0x00,
  0x00, 0x00, 0x00, 0x01, 0x01, 0x00, 0x00, 0x00, 0x09, 0x00, 0x00, 0x00,
  0x03, 0x00, 0x00, 0x00, 0x08, 0x00, 0x00, 0x00, 0x03, 0x00, 0x00, 0x00,
  0x01, 0x00, 0x00, 0x00, 0x00, 0x00, 0x0a, 0x00, 0x0c, 0x00, 0x00, 0x00,
  0x08, 0x00, 0x04, 0x00, 0x0a, 0x00, 0x00, 0x00, 0x08, 0x00, 0x00, 0x00,
  0x0c, 0x00, 0x00, 0x00, 0x01, 0x00, 0x00, 0x00, 0x08, 0x00, 0x00, 0x00,
  0x02, 0x00, 0x00, 0x00, 0x00, 0x00, 0x00, 0x00, 0x06, 0x00, 0x00, 0x00,
  0x01, 0x00, 0x00, 0x00, 0x0d, 0x00, 0x00, 0x00, 0x01, 0x00, 0x00, 0x00,
  0x00, 0x00, 0x00, 0x00, 0x0e, 0x00, 0x00, 0x00, 0xcc, 0x05, 0x00, 0x00,
  0x4c, 0x05, 0x00, 0x00, 0xc8, 0x04, 0x00, 0x00, 0x6c, 0x04, 0x00, 0x00,
  0x10, 0x04, 0x00, 0x00, 0xbc, 0x03, 0x00, 0x00, 0x78, 0x03, 0x00, 0x00,
  0x18, 0x03, 0x00, 0x00, 0xc0, 0x02, 0x00, 0x00, 0xf4, 0x01, 0x00, 0x00,
  0x1c, 0x01, 0x00, 0x00, 0xcc, 0x00, 0x00, 0x00, 0x60, 0x00, 0x00, 0x00,
  0x04, 0x00, 0x00, 0x00, 0x82, 0xfa, 0xff, 0xff, 0x00, 0x00, 0x00, 0x01,
  0x14, 0x00, 0x00, 0x00, 0x1c, 0x00, 0x00, 0x00, 0x1c, 0x00, 0x00, 0x00,
  0x0e, 0x00, 0x00, 0x00, 0x34, 0x00, 0x00, 0x00, 0x02, 0x00, 0x00, 0x00,
  0xff, 0xff, 0xff, 0xff, 0x01, 0x00, 0x00, 0x00, 0x14, 0xfa, 0xff, 0xff,
  0x19, 0x00, 0x00, 0x00, 0x53, 0x74, 0x61, 0x74, 0x65, 0x66, 0x75, 0x6c,
  0x50, 0x61, 0x72, 0x74, 0x69, 0x74, 0x69, 0x6f, 0x6e, 0x65, 0x64, 0x43,
  0x61, 0x6c, 0x6c, 0x3a, 0x30, 0x00, 0x00, 0x00, 0x02, 0x00, 0x00, 0x00,
  0x01, 0x00, 0x00, 0x00, 0x01, 0x00, 0x00, 0x00, 0xda, 0xfa, 0xff, 0xff,
  0x00, 0x00, 0x00, 0x01, 0x14, 0x00, 0x00, 0x00, 0x1c, 0x00, 0x00, 0x00,
  0x1c, 0x00, 0x00, 0x00, 0x0d, 0x00, 0x00, 0x00, 0x44, 0x00, 0x00, 0x00,
  0x02, 0x00, 0x00, 0x00, 0xff, 0xff, 0xff, 0xff, 0x01, 0x00, 0x00, 0x00,
  0x6c, 0xfa, 0xff, 0xff, 0x2a, 0x00, 0x00, 0x00, 0x6d, 0x6f, 0x64, 0x65,
  0x6c, 0x2f, 0x64, 0x65, 0x6e, 0x73, 0x65, 0x5f, 0x32, 0x2f, 0x4d, 0x61,
  0x74, 0x4d, 0x75, 0x6c, 0x3b, 0x6d, 0x6f, 0x64, 0x65, 0x6c, 0x2f, 0x64,
  0x65, 0x6e, 0x73, 0x65, 0x5f, 0x32, 0x2f, 0x42, 0x69, 0x61, 0x73, 0x41,
  0x64, 0x64, 0x00, 0x00, 0x02, 0x00, 0x00, 0x00, 0x01, 0x00, 0x00, 0x00,
  0x01, 0x00, 0x00, 0x00, 0x42, 0xfb, 0xff, 0xff, 0x00, 0x00, 0x00, 0x01,
  0x14, 0x00, 0x00, 0x00, 0x1c, 0x00, 0x00, 0x00, 0x1c, 0x00, 0x00, 0x00,
  0x0c, 0x00, 0x00, 0x00, 0x28, 0x00, 0x00, 0x00, 0x02, 0x00, 0x00, 0x00,
  0xff, 0xff, 0xff, 0xff, 0x0c, 0x00, 0x00, 0x00, 0xd4, 0xfa, 0xff, 0xff,
  0x0d, 0x00, 0x00, 0x00, 0x6d, 0x6f, 0x64, 0x65, 0x6c, 0x2f, 0x61, 0x64,
  0x64, 0x2f, 0x61, 0x64, 0x64, 0x00, 0x00, 0x00, 0x02, 0x00, 0x00, 0x00,
  0x01, 0x00, 0x00, 0x00, 0x0c, 0x00, 0x00, 0x00, 0x8e, 0xfb, 0xff, 0xff,
  0x00, 0x00, 0x00, 0x01, 0x14, 0x00, 0x00, 0x00, 0x1c, 0x00, 0x00, 0x00,
  0x1c, 0x00, 0x00, 0x00, 0x0b, 0x00, 0x00, 0x00, 0xb0, 0x00, 0x00, 0x00,
  0x02, 0x00, 0x00, 0x00, 0xff, 0xff, 0xff, 0xff, 0x0c, 0x00, 0x00, 0x00,
  0x20, 0xfb, 0xff, 0xff, 0x95, 0x00, 0x00, 0x00, 0x6d, 0x6f, 0x64, 0x65,
  0x6c, 0x2f, 0x64, 0x65, 0x6e, 0x73, 0x65, 0x5f, 0x31, 0x2f, 0x4d, 0x61,
  0x74, 0x4d, 0x75, 0x6c, 0x3b, 0x6d, 0x6f, 0x64, 0x65, 0x6c, 0x2f, 0x64,
  0x65, 0x6e, 0x73, 0x65, 0x5f, 0x31, 0x2f, 0x42, 0x69, 0x61, 0x73, 0x41,
  0x64, 0x64, 0x3b, 0x6d, 0x6f, 0x64, 0x65, 0x6c, 0x2f, 0x62, 0x61, 0x74,
  0x63, 0x68, 0x5f, 0x6e, 0x6f, 0x72, 0x6d, 0x61, 0x6c, 0x69, 0x7a, 0x61,
  0x74, 0x69, 0x6f, 0x6e, 0x5f, 0x31, 0x2f, 0x62, 0x61, 0x74, 0x63, 0x68,
  0x6e, 0x6f, 0x72, 0x6d, 0x2f, 0x6d, 0x75, 0x6c, 0x5f, 0x31, 0x3b, 0x6d,
  0x6f, 0x64, 0x65, 0x6c, 0x2f, 0x72, 0x65, 0x5f, 0x6c, 0x75, 0x5f, 0x31,
  0x2f, 0x52, 0x65, 0x6c, 0x75, 0x3b, 0x6d, 0x6f, 0x64, 0x65, 0x6c, 0x2f,
  0x62, 0x61, 0x74, 0x63, 0x68, 0x5f, 0x6e, 0x6f, 0x72, 0x6d, 0x61, 0x6c,
  0x69, 0x7a, 0x61, 0x74, 0x69, 0x6f, 0x6e, 0x5f, 0x31, 0x2f, 0x62, 0x61,
  0x74, 0x63, 0x68, 0x6e, 0x6f, 0x72, 0x6d, 0x2f, 0x61, 0x64, 0x64, 0x5f,
  0x31, 0x00, 0x00, 0x00, 0x02, 0x00, 0x00, 0x00, 0x01, 0x00, 0x00, 0x00,
  0x0c, 0x00, 0x00, 0x00, 0x62, 0xfc, 0xff, 0xff, 0x00, 0x00, 0x00, 0x01,
  0x14, 0x00, 0x00, 0x00, 0x1c, 0x00, 0x00, 0x00, 0x1c, 0x00, 0x00, 0x00,
  0x0a, 0x00, 0x00, 0x00, 0xa4, 0x00, 0x00, 0x00, 0x02, 0x00, 0x00, 0x00,
  0xff, 0xff, 0xff, 0xff, 0x18, 0x00, 0x00, 0x00, 0xf4, 0xfb, 0xff, 0xff,
  0x8b, 0x00, 0x00, 0x00, 0x6d, 0x6f, 0x64, 0x65, 0x6c, 0x2f, 0x64, 0x65,
  0x6e, 0x73, 0x65, 0x2f, 0x4d, 0x61, 0x74, 0x4d, 0x75, 0x6c, 0x3b, 0x6d,
  0x6f, 0x64, 0x65, 0x6c, 0x2f, 0x64, 0x65, 0x6e, 0x73, 0x65, 0x2f, 0x42,
  0x69, 0x61, 0x73, 0x41, 0x64, 0x64, 0x3b, 0x6d, 0x6f, 0x64, 0x65, 0x6c,
  0x2f, 0x62, 0x61, 0x74, 0x63, 0x68, 0x5f, 0x6e, 0x6f, 0x72, 0x6d, 0x61,
  0x6c, 0x69, 0x7a, 0x61, 0x74, 0x69, 0x6f, 0x6e, 0x2f, 0x62, 0x61, 0x74,
  0x63, 0x68, 0x6e, 0x6f, 0x72, 0x6d, 0x2f, 0x6d, 0x75, 0x6c, 0x5f, 0x31,
  0x3b, 0x6d, 0x6f, 0x64, 0x65, 0x6c, 0x2f, 0x72, 0x65, 0x5f, 0x6c, 0x75,
  0x2f, 0x52, 0x65, 0x6c, 0x75, 0x3b, 0x6d, 0x6f, 0x64, 0x65, 0x6c, 0x2f,
  0x62, 0x61, 0x74, 0x63, 0x68, 0x5f, 0x6e, 0x6f, 0x72, 0x6d, 0x61, 0x6c,
  0x69, 0x7a, 0x61, 0x74, 0x69, 0x6f, 0x6e, 0x2f, 0x62, 0x61, 0x74, 0x63,
  0x68, 0x6e, 0x6f, 0x72, 0x6d, 0x2f, 0x61, 0x64, 0x64, 0x5f, 0x31, 0x00,
  0x02, 0x00, 0x00, 0x00, 0x01, 0x00, 0x00, 0x00, 0x18, 0x00, 0x00, 0x00,
  0x2a, 0xfd, 0xff, 0xff, 0x00, 0x00, 0x00, 0x01, 0x14, 0x00, 0x00, 0x00,
  0x1c, 0x00, 0x00, 0x00, 0x1c, 0x00, 0x00, 0x00, 0x09, 0x00, 0x00, 0x00,
  0x30, 0x00, 0x00, 0x00, 0x02, 0x00, 0x00, 0x00, 0xff, 0xff, 0xff, 0xff,
  0x0c, 0x00, 0x00, 0x00, 0xbc, 0xfc, 0xff, 0xff, 0x15, 0x00, 0x00, 0x00,
  0x6d, 0x6f, 0x64, 0x65, 0x6c, 0x2f, 0x66, 0x6c, 0x61, 0x74, 0x74, 0x65,
  0x6e, 0x2f, 0x52, 0x65, 0x73, 0x68, 0x61, 0x70, 0x65, 0x00, 0x00, 0x00,
  0x02, 0x00, 0x00, 0x00, 0x01, 0x00, 0x00, 0x00, 0x0c, 0x00, 0x00, 0x00,
  0xfa, 0xfd, 0xff, 0xff, 0x00, 0x00, 0x00, 0x01, 0x10, 0x00, 0x00, 0x00,
  0x10, 0x00, 0x00, 0x00, 0x08, 0x00, 0x00, 0x00, 0x24, 0x00, 0x00, 0x00,
  0x00, 0xfd, 0xff, 0xff, 0x14, 0x00, 0x00, 0x00, 0x6d, 0x6f, 0x64, 0x65,
  0x6c, 0x2f, 0x64, 0x65, 0x6e, 0x73, 0x65, 0x5f, 0x32, 0x2f, 0x4d, 0x61,
  0x74, 0x4d, 0x75, 0x6c, 0x00, 0x00, 0x00, 0x00, 0x02, 0x00, 0x00, 0x00,
  0x01, 0x00, 0x00, 0x00, 0x0c, 0x00, 0x00, 0x00, 0x00, 0x00, 0x16, 0x00,
  0x1c, 0x00, 0x18, 0x00, 0x17, 0x00, 0x10, 0x00, 0x0c, 0x00, 0x08, 0x00,
  0x00, 0x00, 0x00, 0x00, 0x00, 0x00, 0x07, 0x00, 0x16, 0x00, 0x00, 0x00,
  0x00, 0x00, 0x00, 0x01, 0x14, 0x00, 0x00, 0x00, 0x14, 0x00, 0x00, 0x00,
  0x07, 0x00, 0x00, 0x00, 0x00, 0x00, 0x00, 0x02, 0x20, 0x00, 0x00, 0x00,
  0x60, 0xfd, 0xff, 0xff, 0x13, 0x00, 0x00, 0x00, 0x6d, 0x6f, 0x64, 0x65,
  0x6c, 0x2f, 0x66, 0x6c, 0x61, 0x74, 0x74, 0x65, 0x6e, 0x2f, 0x43, 0x6f,
  0x6e, 0x73, 0x74, 0x00, 0x01, 0x00, 0x00, 0x00, 0x02, 0x00, 0x00, 0x00,
  0x96, 0xfe, 0xff, 0xff, 0x00, 0x00, 0x00, 0x01, 0x10, 0x00, 0x00, 0x00,
  0x10, 0x00, 0x00, 0x00, 0x06, 0x00, 0x00, 0x00, 0x34, 0x00, 0x00, 0x00,
  0x9c, 0xfd, 0xff, 0xff, 0x24, 0x00, 0x00, 0x00, 0x6d, 0x6f, 0x64, 0x65,
  0x6c, 0x2f, 0x64, 0x65, 0x6e, 0x73, 0x65, 0x5f, 0x32, 0x2f, 0x42, 0x69,
  0x61, 0x73, 0x41, 0x64, 0x64, 0x2f, 0x52, 0x65, 0x61, 0x64, 0x56, 0x61,
  0x72, 0x69, 0x61, 0x62, 0x6c, 0x65, 0x4f, 0x70, 0x00, 0x00, 0x00, 0x00,
  0x01, 0x00, 0x00, 0x00, 0x01, 0x00, 0x00, 0x00, 0xe6, 0xfe, 0xff, 0xff,
  0x00, 0x00, 0x00, 0x01, 0x10, 0x00, 0x00, 0x00, 0x10, 0x00, 0x00, 0x00,
  0x05, 0x00, 0x00, 0x00, 0x38, 0x00, 0x00, 0x00, 0xec, 0xfd, 0xff, 0xff,
  0x2b, 0x00, 0x00, 0x00, 0x6d, 0x6f, 0x64, 0x65, 0x6c, 0x2f, 0x62, 0x61,
  0x74, 0x63, 0x68, 0x5f, 0x6e, 0x6f, 0x72, 0x6d, 0x61, 0x6c, 0x69, 0x7a,
  0x61, 0x74, 0x69, 0x6f, 0x6e, 0x5f, 0x31, 0x2f, 0x62, 0x61, 0x74, 0x63,
  0x68, 0x6e, 0x6f, 0x72, 0x6d, 0x2f, 0x6d, 0x75, 0x6c, 0x5f, 0x31, 0x00,
  0x02, 0x00, 0x00, 0x00, 0x0c, 0x00, 0x00, 0x00, 0x18, 0x00, 0x00, 0x00,
  0x3e, 0xff, 0xff, 0xff, 0x00, 0x00, 0x00, 0x01, 0x10, 0x00, 0x00, 0x00,
  0x10, 0x00, 0x00, 0x00, 0x04, 0x00, 0x00, 0x00, 0x38, 0x00, 0x00, 0x00,
  0x44, 0xfe, 0xff, 0xff, 0x29, 0x00, 0x00, 0x00, 0x6d, 0x6f, 0x64, 0x65,
  0x6c, 0x2f, 0x62, 0x61, 0x74, 0x63, 0x68, 0x5f, 0x6e, 0x6f, 0x72, 0x6d,
  0x61, 0x6c, 0x69, 0x7a, 0x61, 0x74, 0x69, 0x6f, 0x6e, 0x2f, 0x62, 0x61,
  0x74, 0x63, 0x68, 0x6e, 0x6f, 0x72, 0x6d, 0x2f, 0x6d, 0x75, 0x6c, 0x5f,
  0x31, 0x00, 0x00, 0x00, 0x02, 0x00, 0x00, 0x00, 0x18, 0x00, 0x00, 0x00,
  0x0c, 0x00, 0x00, 0x00, 0x96, 0xff, 0xff, 0xff, 0x00, 0x00, 0x00, 0x01,
  0x10, 0x00, 0x00, 0x00, 0x10, 0x00, 0x00, 0x00, 0x03, 0x00, 0x00, 0x00,
  0x4c, 0x00, 0x00, 0x00, 0x9c, 0xfe, 0xff, 0xff, 0x3e, 0x00, 0x00, 0x00,
  0x6d, 0x6f, 0x64, 0x65, 0x6c, 0x2f, 0x72, 0x65, 0x5f, 0x6c, 0x75, 0x5f,
  0x31, 0x2f, 0x52, 0x65, 0x6c, 0x75, 0x3b, 0x6d, 0x6f, 0x64, 0x65, 0x6c,
  0x2f, 0x62, 0x61, 0x74, 0x63, 0x68, 0x5f, 0x6e, 0x6f, 0x72, 0x6d, 0x61,
  0x6c, 0x69, 0x7a, 0x61, 0x74, 0x69, 0x6f, 0x6e, 0x5f, 0x31, 0x2f, 0x62,
  0x61, 0x74, 0x63, 0x68, 0x6e, 0x6f, 0x72, 0x6d, 0x2f, 0x61, 0x64, 0x64,
  0x5f, 0x31, 0x00, 0x00, 0x01, 0x00, 0x00, 0x00, 0x0c, 0x00, 0x00, 0x00,
  0x00, 0x00, 0x16, 0x00, 0x18, 0x00, 0x14, 0x00, 0x00, 0x00, 0x10, 0x00,
  0x0c, 0x00, 0x08, 0x00, 0x00, 0x00, 0x00, 0x00, 0x00, 0x00, 0x07, 0x00,
  0x16, 0x00, 0x00, 0x00, 0x00, 0x00, 0x00, 0x01, 0x10, 0x00, 0x00, 0x00,
  0x10, 0x00, 0x00, 0x00, 0x02, 0x00, 0x00, 0x00, 0x48, 0x00, 0x00, 0x00,
  0x1c, 0xff, 0xff, 0xff, 0x3a, 0x00, 0x00, 0x00, 0x6d, 0x6f, 0x64, 0x65,
  0x6c, 0x2f, 0x72, 0x65, 0x5f, 0x6c, 0x75, 0x2f, 0x52, 0x65, 0x6c, 0x75,
  0x3b, 0x6d, 0x6f, 0x64, 0x65, 0x6c, 0x2f, 0x62, 0x61, 0x74, 0x63, 0x68,
  0x5f, 0x6e, 0x6f, 0x72, 0x6d, 0x61, 0x6c, 0x69, 0x7a, 0x61, 0x74, 0x69,
  0x6f, 0x6e, 0x2f, 0x62, 0x61, 0x74, 0x63, 0x68, 0x6e, 0x6f, 0x72, 0x6d,
  0x2f, 0x61, 0x64, 0x64, 0x5f, 0x31, 0x00, 0x00, 0x01, 0x00, 0x00, 0x00,
  0x18, 0x00, 0x00, 0x00, 0x00, 0x00, 0x16, 0x00, 0x1c, 0x00, 0x18, 0x00,
  0x00, 0x00, 0x14, 0x00, 0x10, 0x00, 0x0c, 0x00, 0x00, 0x00, 0x00, 0x00,
  0x08, 0x00, 0x07, 0x00, 0x16, 0x00, 0x00, 0x00, 0x00, 0x00, 0x00, 0x01,
  0x14, 0x00, 0x00, 0x00, 0x20, 0x00, 0x00, 0x00, 0x20, 0x00, 0x00, 0x00,
  0x01, 0x00, 0x00, 0x00, 0x38, 0x00, 0x00, 0x00, 0x03, 0x00, 0x00, 0x00,
  0xff, 0xff, 0xff, 0xff, 0x0c, 0x00, 0x00, 0x00, 0x01, 0x00, 0x00, 0x00,
  0xac, 0xff, 0xff, 0xff, 0x19, 0x00, 0x00, 0x00, 0x73, 0x65, 0x72, 0x76,
  0x69, 0x6e, 0x67, 0x5f, 0x64, 0x65, 0x66, 0x61, 0x75, 0x6c, 0x74, 0x5f,
  0x69, 0x6e, 0x70, 0x75, 0x74, 0x5f, 0x31, 0x3a, 0x30, 0x00, 0x00, 0x00,
  0x03, 0x00, 0x00, 0x00, 0x01, 0x00, 0x00, 0x00, 0x0c, 0x00, 0x00, 0x00,
  0x01, 0x00, 0x00, 0x00, 0x04, 0x00, 0x00, 0x00, 0x3c, 0x00, 0x00, 0x00,
  0x20, 0x00, 0x00, 0x00, 0x18, 0x00, 0x00, 0x00, 0x04, 0x00, 0x00, 0x00,
  0xe0, 0xff, 0xff, 0xff, 0x0e, 0x00, 0x00, 0x00, 0x00, 0x00, 0x00, 0x0e,
  0x04, 0x00, 0x04, 0x00, 0x04, 0x00, 0x00, 0x00, 0xf4, 0xff, 0xff, 0xff,
  0x09, 0x00, 0x00, 0x00, 0x00, 0x00, 0x00, 0x09, 0x0c, 0x00, 0x0c, 0x00,
  0x0b, 0x00, 0x00, 0x00, 0x00, 0x00, 0x04, 0x00, 0x0c, 0x00, 0x00, 0x00,
  0x16, 0x00, 0x00, 0x00, 0x00, 0x00, 0x00, 0x16,
};
const int g_model_len = 5204;
